#include <cstdint>

alignas(16) const unsigned char g_model[] = {
  0x1c, 0x00, 0x00, 0x00, 0x54, 0x46, 0x4c, 0x33, 0x14, 0x00, 0x20, 0x00, 
  0x1c, 0x00, 0x18, 0x00, 0x14, 0x00, 0x10, 0x00, 0x0c, 0x00, 0x00, 0x00, 
  0x08, 0x00, 0x04, 0x00, 0x14, 0x00, 0x00, 0x00, 0x1c, 0x00, 0x00, 0x00, 
  0x98, 0x00, 0x00, 0x00, 0xf0, 0x00, 0x00, 0x00, 0x14, 0x07, 0x00, 0x00, 
  0x24, 0x07, 0x00, 0x00, 0x8c, 0x0c, 0x00, 0x00, 0x03, 0x00, 0x00, 0x00, 
  0x01, 0x00, 0x00, 0x00, 0x10, 0x00, 0x00, 0x00, 0x00, 0x00, 0x0a, 0x00, 
  0x10, 0x00, 0x0c, 0x00, 0x08, 0x00, 0x04, 0x00, 0x0a, 0x00, 0x00, 0x00, 
  0x0c, 0x00, 0x00, 0x00, 0x1c, 0x00, 0x00, 0x00, 0x3c, 0x00, 0x00, 0x00, 
  0x0f, 0x00, 0x00, 0x00, 0x73, 0x65, 0x72, 0x76, 0x69, 0x6e, 0x67, 0x5f, 
  0x64, 0x65, 0x66, 0x61, 0x75, 0x6c, 0x74, 0x00, 0x01, 0x00, 0x00, 0x00, 
  0x04, 0x00, 0x00, 0x00, 0x90, 0xff, 0xff, 0xff, 0x09, 0x00, 0x00, 0x00, 
  0x04, 0x00, 0x00, 0x00, 0x08, 0x00, 0x00, 0x00, 0x6f, 0x75, 0x74, 0x70, 
  0x75, 0x74, 0x5f, 0x30, 0x00, 0x00, 0x00, 0x00, 0x01, 0x00, 0x00, 0x00, 
  0x04, 0x00, 0x00, 0x00, 0xba, 0xf9, 0xff, 0xff, 0x04, 0x00, 0x00, 0x00, 
  0x0f, 0x00, 0x00, 0x00, 0x6b, 0x65, 0x72, 0x61, 0x73, 0x5f, 0x74, 0x65, 
  0x6e, 0x73, 0x6f, 0x72, 0x5f, 0x31, 0x38, 0x00, 0x02, 0x00, 0x00, 0x00, 
  0x34, 0x00, 0x00, 0x00, 0x04, 0x00, 0x00, 0x00, 0xdc, 0xff, 0xff, 0xff, 
  0x0c, 0x00, 0x00, 0x00, 0x04, 0x00, 0x00, 0x00, 0x13, 0x00, 0x00, 0x00, 
  0x43, 0x4f, 0x4e, 0x56, 0x45, 0x52, 0x53, 0x49, 0x4f, 0x4e, 0x5f, 0x4d, 
  0x45, 0x54, 0x41, 0x44, 0x41, 0x54, 0x41, 0x00, 0x08, 0x00, 0x0c, 0x00, 
  0x08, 0x00, 0x04, 0x00, 0x08, 0x00, 0x00, 0x00, 0x0b, 0x00, 0x00, 0x00, 
  0x04, 0x00, 0x00, 0x00, 0x13, 0x00, 0x00, 0x00, 0x6d, 0x69, 0x6e, 0x5f, 
  0x72, 0x75, 0x6e, 0x74, 0x69, 0x6d, 0x65, 0x5f, 0x76, 0x65, 0x72, 0x73, 
  0x69, 0x6f, 0x6e, 0x00, 0x0d, 0x00, 0x00, 0x00, 0x20, 0x06, 0x00, 0x00, 
  0x18, 0x06, 0x00, 0x00, 0xc8, 0x05, 0x00, 0x00, 0xac, 0x05, 0x00, 0x00, 
  0x5c, 0x05, 0x00, 0x00, 0x4c, 0x01, 0x00, 0x00, 0xfc, 0x00, 0x00, 0x00, 
  0xac, 0x00, 0x00, 0x00, 0xa4, 0x00, 0x00, 0x00, 0x9c, 0x00, 0x00, 0x00, 
  0x94, 0x00, 0x00, 0x00, 0x74, 0x00, 0x00, 0x00, 0x04, 0x00, 0x00, 0x00, 
  0x6a, 0xfa, 0xff, 0xff, 0x04, 0x00, 0x00, 0x00, 0x60, 0x00, 0x00, 0x00, 
  0x10, 0x00, 0x00, 0x00, 0x00, 0x00, 0x00, 0x00, 0x08, 0x00, 0x0e, 0x00, 
  0x08, 0x00, 0x04, 0x00, 0x08, 0x00, 0x00, 0x00, 0x10, 0x00, 0x00, 0x00, 
  0x24, 0x00, 0x00, 0x00, 0x00, 0x00, 0x06, 0x00, 0x08, 0x00, 0x04, 0x00, 
  0x06, 0x00, 0x00, 0x00, 0x04, 0x00, 0x00, 0x00, 0x00, 0x00, 0x00, 0x00, 
  0x0c, 0x00, 0x18, 0x00, 0x14, 0x00, 0x10, 0x00, 0x0c, 0x00, 0x04, 0x00, 
  0x0c, 0x00, 0x00, 0x00, 0x07, 0xfb, 0xf7, 0xe3, 0x6d, 0xe7, 0x01, 0x38, 
  0x02, 0x00, 0x00, 0x00, 0x02, 0x00, 0x00, 0x00, 0x04, 0x00, 0x00, 0x00, 
  0x06, 0x00, 0x00, 0x00, 0x32, 0x2e, 0x32, 0x31, 0x2e, 0x30, 0x00, 0x00, 
  0xd6, 0xfa, 0xff, 0xff, 0x04, 0x00, 0x00, 0x00, 0x10, 0x00, 0x00, 0x00, 
  0x31, 0x2e, 0x35, 0x2e, 0x30, 0x00, 0x00, 0x00, 0x00, 0x00, 0x00, 0x00, 
  0x00, 0x00, 0x00, 0x00, 0x54, 0xf5, 0xff, 0xff, 0x58, 0xf5, 0xff, 0xff, 
  0x5c, 0xf5, 0xff, 0xff, 0xfe, 0xfa, 0xff, 0xff, 0x04, 0x00, 0x00, 0x00, 
  0x40, 0x00, 0x00, 0x00, 0x29, 0x50, 0xf8, 0xbe, 0x00, 0x00, 0x00, 0x00, 
  0x76, 0x5a, 0x11, 0xbf, 0x0c, 0xbb, 0xfe, 0xbe, 0x00, 0x00, 0x00, 0x00, 
  0x00, 0x00, 0x00, 0x00, 0xb7, 0xd9, 0xb6, 0x3e, 0x00, 0x00, 0x00, 0x00, 
  0x00, 0x00, 0x00, 0x00, 0x00, 0x00, 0x00, 0x00, 0x5d, 0x01, 0x4b, 0x3e, 
  0x77, 0x4b, 0x8d, 0x3f, 0x85, 0x44, 0x39, 0xbf, 0x17, 0x37, 0xb2, 0xbd, 
  0x00, 0x00, 0x00, 0x00, 0x00, 0x00, 0x00, 0x00, 0x4a, 0xfb, 0xff, 0xff, 
  0x04, 0x00, 0x00, 0x00, 0x40, 0x00, 0x00, 0x00, 0x43, 0x5f, 0x91, 0x3e, 
  0x9e, 0x47, 0x8b, 0xbe, 0x8c, 0x15, 0x1c, 0x3f, 0x2a, 0xb0, 0x18, 0x3e, 
  0xeb, 0x4d, 0xf7, 0xbe, 0xd2, 0xab, 0x0e, 0xbf, 0x4a, 0x16, 0x0b, 0x3f, 
  0x38, 0x44, 0x81, 0xbe, 0x18, 0x62, 0xb6, 0xbd, 0x40, 0xda, 0xee, 0xbe, 
  0x77, 0x71, 0x82, 0x3e, 0xad, 0xc3, 0x49, 0x3e, 0x07, 0x2d, 0x93, 0x3e, 
  0x76, 0xcd, 0x6b, 0x3e, 0xdc, 0x4e, 0xb9, 0xbe, 0x2a, 0x28, 0x20, 0xbe, 
  0x96, 0xfb, 0xff, 0xff, 0x04, 0x00, 0x00, 0x00, 0x00, 0x04, 0x00, 0x00, 
  0xe8, 0x0b, 0x49, 0x3e, 0xd8, 0x6d, 0x6b, 0x3d, 0x61, 0x4e, 0x86, 0xbe, 
  0xfe, 0x38, 0x80, 0xbe, 0x50, 0x45, 0xb5, 0xbc, 0x82, 0x3a, 0x5a, 0x3e, 
  0x44, 0xba, 0xba, 0xbd, 0xd2, 0xc3, 0x92, 0xbe, 0x22, 0x25, 0x3d, 0x3e, 
  0xbe, 0xf2, 0x52, 0x3e, 0x02, 0xd2, 0x46, 0xbe, 0x2e, 0x72, 0x03, 0x3f, 
  0xb5, 0x9b, 0x63, 0xbf, 0xe4, 0xa9, 0xc1, 0xbe, 0xa0, 0x34, 0x11, 0xbd, 
  0xd8, 0xaa, 0x80, 0x3d, 0xd8, 0x70, 0xc3, 0xbe, 0xbf, 0xc0, 0xc5, 0xbe, 
  0x1c, 0xe1, 0x07, 0xbf, 0xf7, 0x92, 0x94, 0x3d, 0xed, 0xe7, 0xaf, 0x3e, 
  0x33, 0xc9, 0xd1, 0xbe, 0xbc, 0xa8, 0xc6, 0x3e, 0xc8, 0xeb, 0x72, 0x3d, 
  0x92, 0x6e, 0x59, 0x3e, 0xc0, 0x66, 0xb6, 0xbe, 0x1d, 0x96, 0xc7, 0x3e, 
  0x71, 0xb4, 0xad, 0x3d, 0xbf, 0x48, 0x3e, 0xbf, 0xab, 0x0b, 0x97, 0xbe, 
  0xe1, 0x06, 0xd8, 0xbe, 0x1d, 0x55, 0x3d, 0xbe, 0x27, 0xda, 0xd4, 0x3e, 
  0xf4, 0x72, 0xd5, 0x3d, 0x6d, 0x46, 0x81, 0xbe, 0x4e, 0x2d, 0x90, 0x3c, 
  0x16, 0xf1, 0x2f, 0x3e, 0x5c, 0x16, 0xdc, 0x3d, 0x7d, 0x66, 0x9c, 0xbe, 
  0x99, 0xa4, 0xa0, 0x3e, 0xa1, 0x62, 0xce, 0x3e, 0xee, 0xf5, 0x49, 0x3e, 
  0xe1, 0x97, 0x51, 0xbc, 0x78, 0xd4, 0x9e, 0xbe, 0xa6, 0xd4, 0xc4, 0x3d, 
  0x14, 0x22, 0x1c, 0xbe, 0x41, 0xa7, 0xcd, 0x3e, 0xea, 0x7d, 0xa6, 0xbe, 
  0xf7, 0x86, 0x02, 0xbe, 0xaa, 0x57, 0x02, 0x3e, 0x5a, 0x3b, 0x84, 0xbe, 
  0x44, 0x32, 0x2f, 0xbe, 0x78, 0x9f, 0xa8, 0xbd, 0xee, 0xf5, 0xb6, 0xbe, 
  0xa7, 0x01, 0x35, 0xbc, 0x49, 0x22, 0xaf, 0x3e, 0x9a, 0x1f, 0x34, 0x3e, 
  0xb7, 0x95, 0xd5, 0x3e, 0x81, 0x3d, 0xda, 0x3e, 0x5a, 0xb4, 0x6a, 0x3e, 
  0x4a, 0xd4, 0x89, 0xbe, 0x1e, 0x8e, 0xcd, 0xbe, 0xd2, 0x57, 0x06, 0x3e, 
  0xe4, 0xe7, 0xff, 0xbd, 0x0f, 0x28, 0x1a, 0xbc, 0xe0, 0x96, 0x96, 0xbc, 
  0x55, 0xb6, 0x19, 0xbf, 0x52, 0x66, 0xca, 0x3e, 0xee, 0x25, 0x28, 0x3e, 
  0xaf, 0xc9, 0x70, 0xbe, 0x84, 0x46, 0xfb, 0xbe, 0xc5, 0x95, 0x8c, 0x3e, 
  0x4d, 0x29, 0xb3, 0xbe, 0x93, 0x8c, 0xc1, 0x3e, 0x42, 0x68, 0xb9, 0x3e, 
  0xbe, 0x44, 0xbf, 0x3e, 0x76, 0x62, 0x09, 0xbe, 0xe1, 0x41, 0xd1, 0xbe, 
  0xfa, 0xd8, 0x60, 0x3e, 0xa9, 0x30, 0xd4, 0x3e, 0x91, 0x22, 0xff, 0x3c, 
  0xed, 0x53, 0xcf, 0x3e, 0xea, 0x35, 0x9e, 0x3e, 0xca, 0x6e, 0x8a, 0x3e, 
  0x89, 0xfb, 0xaf, 0x3e, 0x88, 0xc6, 0xf5, 0xbd, 0x70, 0xff, 0xc0, 0xbe, 
  0x14, 0x75, 0xa2, 0x3d, 0x5d, 0x1e, 0x99, 0x3e, 0xe1, 0x45, 0xbb, 0x3e, 
  0x13, 0x8e, 0x01, 0x3e, 0xee, 0x07, 0xc5, 0xbe, 0x46, 0x66, 0xa6, 0x3e, 
  0x0f, 0xb4, 0x86, 0x3e, 0x60, 0x2e, 0x64, 0xbd, 0x88, 0x80, 0x1e, 0x3d, 
  0x85, 0xa6, 0xbc, 0xbd, 0xfb, 0x4d, 0xc2, 0xbe, 0x67, 0xc2, 0xdb, 0x3d, 
  0x09, 0x23, 0x4a, 0x3e, 0x31, 0x86, 0x3f, 0xbe, 0xd0, 0x80, 0xb6, 0xbe, 
  0x60, 0x48, 0x16, 0x3e, 0xbb, 0xca, 0x9b, 0x3e, 0x03, 0xda, 0xb1, 0xbe, 
  0x05, 0x18, 0xc8, 0x3e, 0xf9, 0xb0, 0x6c, 0x3d, 0xc3, 0x82, 0x56, 0xbc, 
  0xa8, 0xc0, 0xa5, 0xbe, 0xda, 0xa6, 0xc6, 0x3e, 0x5d, 0x81, 0x74, 0xbe, 
  0x18, 0x86, 0x59, 0x3d, 0xf5, 0xe8, 0x85, 0x3e, 0x7c, 0x34, 0xfd, 0x3d, 
  0x91, 0xc1, 0x85, 0x3e, 0x0e, 0x6f, 0xca, 0x3e, 0xa4, 0x03, 0x45, 0xbe, 
  0xbd, 0x27, 0x8d, 0x3e, 0x40, 0x65, 0x91, 0x3e, 0x62, 0x2d, 0x0c, 0xbe, 
  0xb7, 0xbc, 0xa6, 0x3e, 0x25, 0xa3, 0xa0, 0x3e, 0xca, 0x47, 0x36, 0x3a, 
  0x3b, 0xa3, 0x7a, 0xbe, 0x00, 0x13, 0x9c, 0x3e, 0x1a, 0x9b, 0x5a, 0x3d, 
  0xc2, 0x5c, 0xbf, 0xbe, 0xfc, 0xa6, 0xcb, 0x3d, 0xfd, 0xf1, 0xa8, 0x3e, 
  0x70, 0x8c, 0x12, 0x3d, 0x15, 0x38, 0xb4, 0xbe, 0xe1, 0x08, 0xa6, 0xbe, 
  0x5c, 0x1e, 0x41, 0xbe, 0x72, 0xdb, 0x14, 0x3e, 0x15, 0x63, 0xcd, 0x3e, 
  0x00, 0xfc, 0x27, 0x3a, 0x78, 0x0c, 0x22, 0x3d, 0x74, 0x3d, 0x34, 0xbe, 
  0x32, 0xfd, 0x4b, 0xbe, 0xf8, 0x34, 0x7a, 0xbe, 0x40, 0x0f, 0x02, 0xbc, 
  0x80, 0x7c, 0x6a, 0xbc, 0x19, 0xea, 0xc3, 0x3e, 0x1c, 0xc7, 0xcc, 0x3d, 
  0xe5, 0x8d, 0xd4, 0x3d, 0xea, 0xfd, 0x4d, 0x3e, 0xe1, 0xe2, 0xd1, 0x3e, 
  0xfb, 0xe9, 0x9a, 0x3e, 0x82, 0x93, 0x2b, 0xbe, 0x50, 0x8d, 0x9c, 0xbe, 
  0x8d, 0x0a, 0x5c, 0xbe, 0x89, 0x20, 0xaa, 0x3e, 0xc2, 0x31, 0x75, 0x3e, 
  0x85, 0x9e, 0x96, 0x3e, 0x0d, 0x28, 0x46, 0x3e, 0x34, 0x01, 0x08, 0x3d, 
  0x1d, 0xa5, 0x14, 0x3e, 0xdc, 0x9a, 0x7f, 0xbe, 0xec, 0xfe, 0xa7, 0x3d, 
  0xf0, 0x3a, 0x90, 0xbd, 0x46, 0x04, 0x31, 0x3e, 0xc5, 0xaf, 0xb2, 0x3e, 
  0xa0, 0xdb, 0x82, 0x3e, 0xd6, 0xb7, 0xfb, 0x3d, 0x95, 0xee, 0x8b, 0x3e, 
  0x1a, 0x81, 0x0b, 0xbe, 0xfe, 0x03, 0x3b, 0xbe, 0x2e, 0x72, 0x34, 0x3e, 
  0x7f, 0xe8, 0xc4, 0x3e, 0xc0, 0xcf, 0xf8, 0xbc, 0x21, 0x21, 0x29, 0xbe, 
  0xb5, 0xf1, 0x02, 0x3e, 0xeb, 0x20, 0x18, 0x3e, 0xe4, 0xfc, 0x67, 0x3e, 
  0x84, 0x0b, 0x01, 0xbe, 0x0f, 0x58, 0xbe, 0x3e, 0x50, 0x87, 0x11, 0x3e, 
  0xda, 0x4d, 0x34, 0x3e, 0x09, 0xa0, 0x09, 0x3e, 0xf1, 0x60, 0x53, 0x3e, 
  0x9a, 0xb9, 0x70, 0x3e, 0x80, 0x0a, 0x7c, 0xbb, 0x9d, 0x66, 0x56, 0xbf, 
  0x4e, 0xbe, 0x4a, 0x3e, 0x69, 0xa5, 0x86, 0x3e, 0x04, 0x86, 0x10, 0xbe, 
  0xf0, 0x20, 0x19, 0x3e, 0x00, 0x44, 0xb2, 0x3e, 0xbe, 0x0b, 0x02, 0xbe, 
  0x87, 0xa0, 0xd6, 0xbe, 0x09, 0xfe, 0x9f, 0xbe, 0xc4, 0xc6, 0xb1, 0xbd, 
  0x8e, 0x83, 0x70, 0x3e, 0xe2, 0x72, 0x67, 0x3e, 0x53, 0xdc, 0x37, 0x3e, 
  0x3e, 0xd4, 0xc7, 0x3e, 0x70, 0xf7, 0x03, 0xbe, 0xd5, 0x50, 0xd4, 0x3e, 
  0x69, 0x4c, 0xae, 0xbe, 0x14, 0x30, 0xf6, 0x3d, 0x15, 0x70, 0xc8, 0x3e, 
  0x5d, 0x62, 0xb1, 0x3e, 0x88, 0x6d, 0xd9, 0xbe, 0xe7, 0x15, 0xa0, 0xbd, 
  0xc1, 0xae, 0x8b, 0x3e, 0xbc, 0x44, 0xb7, 0xbe, 0x82, 0xa6, 0x68, 0x3e, 
  0x2b, 0x77, 0xc1, 0xbe, 0x40, 0x76, 0x02, 0xbc, 0x3d, 0x37, 0xdc, 0x3e, 
  0xfb, 0x51, 0x8d, 0xbe, 0xfd, 0xc2, 0xa8, 0x3e, 0xd8, 0xe6, 0x69, 0xbd, 
  0xec, 0x95, 0x92, 0xbe, 0xc8, 0x90, 0xde, 0xbd, 0xbb, 0x6f, 0xa5, 0x3e, 
  0x03, 0xb5, 0xa8, 0xbe, 0x44, 0xd7, 0xb1, 0x3d, 0x08, 0xc5, 0x8b, 0xbe, 
  0xc0, 0x21, 0xc4, 0xbc, 0x80, 0xf4, 0xaa, 0x3b, 0x45, 0x37, 0xc1, 0xbe, 
  0x15, 0xff, 0xa8, 0xbe, 0x3d, 0x19, 0xb8, 0x3e, 0x7d, 0x80, 0xc7, 0xbe, 
  0x42, 0xea, 0x19, 0xbe, 0x33, 0x61, 0x89, 0x3e, 0x14, 0xc8, 0xa9, 0xbe, 
  0xaa, 0xa8, 0x39, 0xbe, 0xac, 0x67, 0xc8, 0xbd, 0x93, 0x32, 0xb2, 0x3e, 
  0x38, 0x73, 0x47, 0x3d, 0x67, 0xdc, 0xc2, 0x3e, 0x8a, 0x26, 0x5a, 0x3e, 
  0xb3, 0x0a, 0xea, 0x3e, 0x98, 0x2c, 0x4f, 0x3d, 0x77, 0xae, 0x80, 0xbc, 
  0xec, 0x5e, 0xb2, 0x3e, 0x90, 0x56, 0x79, 0xbe, 0x30, 0x00, 0x23, 0xbe, 
  0xbc, 0xa5, 0x04, 0x3f, 0x80, 0x9a, 0x6e, 0x3b, 0xec, 0x37, 0xa7, 0x3e, 
  0x38, 0x18, 0xc2, 0x3e, 0x03, 0x7c, 0x8d, 0x3e, 0xc8, 0xdf, 0x22, 0xbd, 
  0x6c, 0x54, 0x88, 0xbe, 0x99, 0x97, 0xa1, 0x3e, 0xe6, 0xd8, 0xa8, 0xbe, 
  0x42, 0xca, 0x65, 0x3e, 0x6a, 0x0c, 0x6b, 0x3e, 0x61, 0x31, 0x18, 0xbf, 
  0xac, 0x47, 0x51, 0x3f, 0x71, 0x6a, 0x5b, 0xba, 0xec, 0xaf, 0xa8, 0xbd, 
  0xfd, 0xf2, 0xda, 0xbe, 0xa2, 0xff, 0xff, 0xff, 0x04, 0x00, 0x00, 0x00, 
  0x40, 0x00, 0x00, 0x00, 0x88, 0x8f, 0x2e, 0x3f, 0x54, 0xc3, 0x94, 0x3f, 
  0xf9, 0x9e, 0xcf, 0x3e, 0x1e, 0x16, 0x83, 0x3f, 0xa8, 0x78, 0x86, 0xbf, 
  0xa9, 0xd3, 0x0e, 0xbe, 0xbc, 0x41, 0xf3, 0xbe, 0xd4, 0xb8, 0xac, 0x3e, 
  0xc4, 0x28, 0x95, 0x3e, 0x8b, 0x20, 0xd1, 0x3e, 0x5f, 0xce, 0x45, 0x3e, 
  0x93, 0x18, 0xaa, 0xbf, 0xf2, 0x8e, 0x4a, 0xbe, 0x38, 0x5c, 0x95, 0xbd, 
  0x30, 0xbd, 0xdf, 0xbe, 0xfc, 0x11, 0xdc, 0x3f, 0xee, 0xff, 0xff, 0xff, 
  0x04, 0x00, 0x00, 0x00, 0x04, 0x00, 0x00, 0x00, 0xb3, 0xac, 0x2d, 0xbe, 
  0x00, 0x00, 0x06, 0x00, 0x08, 0x00, 0x04, 0x00, 0x06, 0x00, 0x00, 0x00, 
  0x04, 0x00, 0x00, 0x00, 0x40, 0x00, 0x00, 0x00, 0xd2, 0x44, 0xdc, 0x3e, 
  0x9a, 0x96, 0x96, 0x3e, 0xd4, 0x56, 0x2e, 0xbc, 0x6e, 0x32, 0x8c, 0x3e, 
  0x3b, 0x96, 0xda, 0x3e, 0xa0, 0xe9, 0x63, 0xbc, 0x90, 0x91, 0x0a, 0x3e, 
  0xb5, 0xc7, 0x24, 0xbe, 0x00, 0x00, 0x00, 0x00, 0x0e, 0x7f, 0x15, 0xbe, 
  0x62, 0x71, 0x1b, 0xbe, 0x70, 0x91, 0xd7, 0x3e, 0x91, 0x17, 0x01, 0xbb, 
  0x00, 0x00, 0x00, 0x00, 0x76, 0xbf, 0xfc, 0x3d, 0x67, 0xca, 0xa9, 0xbe, 
  0xb4, 0xfa, 0xff, 0xff, 0xb8, 0xfa, 0xff, 0xff, 0x0f, 0x00, 0x00, 0x00, 
  0x4d, 0x4c, 0x49, 0x52, 0x20, 0x43, 0x6f, 0x6e, 0x76, 0x65, 0x72, 0x74, 
  0x65, 0x64, 0x2e, 0x00, 0x01, 0x00, 0x00, 0x00, 0x14, 0x00, 0x00, 0x00, 
  0x00, 0x00, 0x0e, 0x00, 0x18, 0x00, 0x14, 0x00, 0x10, 0x00, 0x0c, 0x00, 
  0x08, 0x00, 0x04, 0x00, 0x0e, 0x00, 0x00, 0x00, 0x14, 0x00, 0x00, 0x00, 
  0x1c, 0x00, 0x00, 0x00, 0xe8, 0x00, 0x00, 0x00, 0xec, 0x00, 0x00, 0x00, 
  0xf0, 0x00, 0x00, 0x00, 0x04, 0x00, 0x00, 0x00, 0x6d, 0x61, 0x69, 0x6e, 
  0x00, 0x00, 0x00, 0x00, 0x03, 0x00, 0x00, 0x00, 0x90, 0x00, 0x00, 0x00, 
  0x48, 0x00, 0x00, 0x00, 0x04, 0x00, 0x00, 0x00, 0xce, 0xff, 0xff, 0xff, 
  0x10, 0x00, 0x00, 0x00, 0x00, 0x00, 0x00, 0x08, 0x0c, 0x00, 0x00, 0x00, 
  0x10, 0x00, 0x00, 0x00, 0x30, 0xfb, 0xff, 0xff, 0x01, 0x00, 0x00, 0x00, 
  0x09, 0x00, 0x00, 0x00, 0x03, 0x00, 0x00, 0x00, 0x08, 0x00, 0x00, 0x00, 
  0x03, 0x00, 0x00, 0x00, 0x02, 0x00, 0x00, 0x00, 0x00, 0x00, 0x0e, 0x00, 
  0x14, 0x00, 0x00, 0x00, 0x10, 0x00, 0x0c, 0x00, 0x0b, 0x00, 0x04, 0x00, 
  0x0e, 0x00, 0x00, 0x00, 0x10, 0x00, 0x00, 0x00, 0x00, 0x00, 0x00, 0x08, 
  0x10, 0x00, 0x00, 0x00, 0x14, 0x00, 0x00, 0x00, 0xba, 0xff, 0xff, 0xff, 
  0x00, 0x00, 0x00, 0x01, 0x01, 0x00, 0x00, 0x00, 0x08, 0x00, 0x00, 0x00, 
  0x03, 0x00, 0x00, 0x00, 0x07, 0x00, 0x00, 0x00, 0x04, 0x00, 0x00, 0x00, 
  0x01, 0x00, 0x00, 0x00, 0x00, 0x00, 0x0e, 0x00, 0x16, 0x00, 0x00, 0x00, 
  0x10, 0x00, 0x0c, 0x00, 0x0b, 0x00, 0x04, 0x00, 0x0e, 0x00, 0x00, 0x00, 
  0x18, 0x00, 0x00, 0x00, 0x00, 0x00, 0x00, 0x08, 0x18, 0x00, 0x00, 0x00, 
  0x1c, 0x00, 0x00, 0x00, 0x00, 0x00, 0x06, 0x00, 0x08, 0x00, 0x07, 0x00, 
  0x06, 0x00, 0x00, 0x00, 0x00, 0x00, 0x00, 0x01, 0x01, 0x00, 0x00, 0x00, 
  0x07, 0x00, 0x00, 0x00, 0x03, 0x00, 0x00, 0x00, 0x00, 0x00, 0x00, 0x00, 
  0x05, 0x00, 0x00, 0x00, 0x06, 0x00, 0x00, 0x00, 0x01, 0x00, 0x00, 0x00, 
  0x09, 0x00, 0x00, 0x00, 0x01, 0x00, 0x00, 0x00, 0x00, 0x00, 0x00, 0x00, 
  0x0a, 0x00, 0x00, 0x00, 0xe8, 0x03, 0x00, 0x00, 0x64, 0x03, 0x00, 0x00, 
  0x00, 0x03, 0x00, 0x00, 0xac, 0x02, 0x00, 0x00, 0x5c, 0x02, 0x00, 0x00, 
  0x0c, 0x02, 0x00, 0x00, 0xa0, 0x01, 0x00, 0x00, 0x00, 0x01, 0x00, 0x00, 
  0x60, 0x00, 0x00, 0x00, 0x04, 0x00, 0x00, 0x00, 0x56, 0xfc, 0xff, 0xff, 
  0x00, 0x00, 0x00, 0x01, 0x14, 0x00, 0x00, 0x00, 0x1c, 0x00, 0x00, 0x00, 
  0x1c, 0x00, 0x00, 0x00, 0x0a, 0x00, 0x00, 0x00, 0x34, 0x00, 0x00, 0x00, 
  0x02, 0x00, 0x00, 0x00, 0xff, 0xff, 0xff, 0xff, 0x01, 0x00, 0x00, 0x00, 
  0x40, 0xfc, 0xff, 0xff, 0x1b, 0x00, 0x00, 0x00, 0x53, 0x74, 0x61, 0x74, 
  0x65, 0x66, 0x75, 0x6c, 0x50, 0x61, 0x72, 0x74, 0x69, 0x74, 0x69, 0x6f, 
  0x6e, 0x65, 0x64, 0x43, 0x61, 0x6c, 0x6c, 0x5f, 0x31, 0x3a, 0x30, 0x00, 
  0x02, 0x00, 0x00, 0x00, 0x01, 0x00, 0x00, 0x00, 0x01, 0x00, 0x00, 0x00, 
  0xae, 0xfc, 0xff, 0xff, 0x00, 0x00, 0x00, 0x01, 0x14, 0x00, 0x00, 0x00, 
  0x1c, 0x00, 0x00, 0x00, 0x1c, 0x00, 0x00, 0x00, 0x09, 0x00, 0x00, 0x00, 
  0x78, 0x00, 0x00, 0x00, 0x02, 0x00, 0x00, 0x00, 0xff, 0xff, 0xff, 0xff, 
  0x10, 0x00, 0x00, 0x00, 0x98, 0xfc, 0xff, 0xff, 0x5e, 0x00, 0x00, 0x00, 
  0x73, 0x65, 0x71, 0x75, 0x65, 0x6e, 0x74, 0x69, 0x61, 0x6c, 0x5f, 0x33, 
  0x5f, 0x31, 0x2f, 0x64, 0x65, 0x6e, 0x73, 0x65, 0x5f, 0x39, 0x5f, 0x31, 
  0x2f, 0x4d, 0x61, 0x74, 0x4d, 0x75, 0x6c, 0x3b, 0x73, 0x65, 0x71, 0x75, 
  0x65, 0x6e, 0x74, 0x69, 0x61, 0x6c, 0x5f, 0x33, 0x5f, 0x31, 0x2f, 0x64, 
  0x65, 0x6e, 0x73, 0x65, 0x5f, 0x39, 0x5f, 0x31, 0x2f, 0x52, 0x65, 0x6c, 
  0x75, 0x3b, 0x73, 0x65, 0x71, 0x75, 0x65, 0x6e, 0x74, 0x69, 0x61, 0x6c, 
  0x5f, 0x33, 0x5f, 0x31, 0x2f, 0x64, 0x65, 0x6e, 0x73, 0x65, 0x5f, 0x39, 
  0x5f, 0x31, 0x2f, 0x42, 0x69, 0x61, 0x73, 0x41, 0x64, 0x64, 0x00, 0x00, 
  0x02, 0x00, 0x00, 0x00, 0x01, 0x00, 0x00, 0x00, 0x10, 0x00, 0x00, 0x00, 
  0x4a, 0xfd, 0xff, 0xff, 0x00, 0x00, 0x00, 0x01, 0x14, 0x00, 0x00, 0x00, 
  0x1c, 0x00, 0x00, 0x00, 0x1c, 0x00, 0x00, 0x00, 0x08, 0x00, 0x00, 0x00, 
  0x78, 0x00, 0x00, 0x00, 0x02, 0x00, 0x00, 0x00, 0xff, 0xff, 0xff, 0xff, 
  0x10, 0x00, 0x00, 0x00, 0x34, 0xfd, 0xff, 0xff, 0x5e, 0x00, 0x00, 0x00, 
  0x73, 0x65, 0x71, 0x75, 0x65, 0x6e, 0x74, 0x69, 0x61, 0x6c, 0x5f, 0x33, 
  0x5f, 0x31, 0x2f, 0x64, 0x65, 0x6e, 0x73, 0x65, 0x5f, 0x38, 0x5f, 0x31, 
  0x2f, 0x4d, 0x61, 0x74, 0x4d, 0x75, 0x6c, 0x3b, 0x73, 0x65, 0x71, 0x75, 
  0x65, 0x6e, 0x74, 0x69, 0x61, 0x6c, 0x5f, 0x33, 0x5f, 0x31, 0x2f, 0x64, 
  0x65, 0x6e, 0x73, 0x65, 0x5f, 0x38, 0x5f, 0x31, 0x2f, 0x52, 0x65, 0x6c, 
  0x75, 0x3b, 0x73, 0x65, 0x71, 0x75, 0x65, 0x6e, 0x74, 0x69, 0x61, 0x6c, 
  0x5f, 0x33, 0x5f, 0x31, 0x2f, 0x64, 0x65, 0x6e, 0x73, 0x65, 0x5f, 0x38, 
  0x5f, 0x31, 0x2f, 0x42, 0x69, 0x61, 0x73, 0x41, 0x64, 0x64, 0x00, 0x00, 
  0x02, 0x00, 0x00, 0x00, 0x01, 0x00, 0x00, 0x00, 0x10, 0x00, 0x00, 0x00, 
  0x66, 0xfe, 0xff, 0xff, 0x00, 0x00, 0x00, 0x01, 0x10, 0x00, 0x00, 0x00, 
  0x10, 0x00, 0x00, 0x00, 0x07, 0x00, 0x00, 0x00, 0x4c, 0x00, 0x00, 0x00, 
  0xc0, 0xfd, 0xff, 0xff, 0x3e, 0x00, 0x00, 0x00, 0x73, 0x65, 0x71, 0x75, 
  0x65, 0x6e, 0x74, 0x69, 0x61, 0x6c, 0x5f, 0x33, 0x5f, 0x31, 0x2f, 0x64, 
  0x65, 0x6e, 0x73, 0x65, 0x5f, 0x38, 0x5f, 0x31, 0x2f, 0x52, 0x65, 0x6c, 
  0x75, 0x3b, 0x73, 0x65, 0x71, 0x75, 0x65, 0x6e, 0x74, 0x69, 0x61, 0x6c, 
  0x5f, 0x33, 0x5f, 0x31, 0x2f, 0x64, 0x65, 0x6e, 0x73, 0x65, 0x5f, 0x38, 
  0x5f, 0x31, 0x2f, 0x42, 0x69, 0x61, 0x73, 0x41, 0x64, 0x64, 0x00, 0x00, 
  0x01, 0x00, 0x00, 0x00, 0x10, 0x00, 0x00, 0x00, 0xce, 0xfe, 0xff, 0xff, 
  0x00, 0x00, 0x00, 0x01, 0x10, 0x00, 0x00, 0x00, 0x10, 0x00, 0x00, 0x00, 
  0x06, 0x00, 0x00, 0x00, 0x2c, 0x00, 0x00, 0x00, 0x28, 0xfe, 0xff, 0xff, 
  0x1f, 0x00, 0x00, 0x00, 0x73, 0x65, 0x71, 0x75, 0x65, 0x6e, 0x74, 0x69, 
  0x61, 0x6c, 0x5f, 0x33, 0x5f, 0x31, 0x2f, 0x64, 0x65, 0x6e, 0x73, 0x65, 
  0x5f, 0x38, 0x5f, 0x31, 0x2f, 0x4d, 0x61, 0x74, 0x4d, 0x75, 0x6c, 0x00, 
  0x02, 0x00, 0x00, 0x00, 0x10, 0x00, 0x00, 0x00, 0x01, 0x00, 0x00, 0x00, 
  0x1a, 0xff, 0xff, 0xff, 0x00, 0x00, 0x00, 0x01, 0x10, 0x00, 0x00, 0x00, 
  0x10, 0x00, 0x00, 0x00, 0x05, 0x00, 0x00, 0x00, 0x2c, 0x00, 0x00, 0x00, 
  0x74, 0xfe, 0xff, 0xff, 0x1f, 0x00, 0x00, 0x00, 0x73, 0x65, 0x71, 0x75, 
  0x65, 0x6e, 0x74, 0x69, 0x61, 0x6c, 0x5f, 0x33, 0x5f, 0x31, 0x2f, 0x64, 
  0x65, 0x6e, 0x73, 0x65, 0x5f, 0x39, 0x5f, 0x31, 0x2f, 0x4d, 0x61, 0x74, 
  0x4d, 0x75, 0x6c, 0x00, 0x02, 0x00, 0x00, 0x00, 0x10, 0x00, 0x00, 0x00, 
  0x10, 0x00, 0x00, 0x00, 0x66, 0xff, 0xff, 0xff, 0x00, 0x00, 0x00, 0x01, 
  0x10, 0x00, 0x00, 0x00, 0x10, 0x00, 0x00, 0x00, 0x04, 0x00, 0x00, 0x00, 
  0x30, 0x00, 0x00, 0x00, 0xc0, 0xfe, 0xff, 0xff, 0x20, 0x00, 0x00, 0x00, 
  0x73, 0x65, 0x71, 0x75, 0x65, 0x6e, 0x74, 0x69, 0x61, 0x6c, 0x5f, 0x33, 
  0x5f, 0x31, 0x2f, 0x64, 0x65, 0x6e, 0x73, 0x65, 0x5f, 0x31, 0x30, 0x5f, 
  0x31, 0x2f, 0x4d, 0x61, 0x74, 0x4d, 0x75, 0x6c, 0x00, 0x00, 0x00, 0x00, 
  0x02, 0x00, 0x00, 0x00, 0x01, 0x00, 0x00, 0x00, 0x10, 0x00, 0x00, 0x00, 
  0xb6, 0xff, 0xff, 0xff, 0x00, 0x00, 0x00, 0x01, 0x10, 0x00, 0x00, 0x00, 
  0x10, 0x00, 0x00, 0x00, 0x03, 0x00, 0x00, 0x00, 0x2c, 0x00, 0x00, 0x00, 
  0x10, 0xff, 0xff, 0xff, 0x1d, 0x00, 0x00, 0x00, 0x73, 0x65, 0x71, 0x75, 
  0x65, 0x6e, 0x74, 0x69, 0x61, 0x6c, 0x5f, 0x33, 0x5f, 0x31, 0x2f, 0x64, 
  0x65, 0x6e, 0x73, 0x65, 0x5f, 0x31, 0x30, 0x5f, 0x31, 0x2f, 0x41, 0x64, 
  0x64, 0x00, 0x00, 0x00, 0x01, 0x00, 0x00, 0x00, 0x01, 0x00, 0x00, 0x00, 
  0x00, 0x00, 0x16, 0x00, 0x18, 0x00, 0x14, 0x00, 0x00, 0x00, 0x10, 0x00, 
  0x0c, 0x00, 0x08, 0x00, 0x00, 0x00, 0x00, 0x00, 0x00, 0x00, 0x07, 0x00, 
  0x16, 0x00, 0x00, 0x00, 0x00, 0x00, 0x00, 0x01, 0x10, 0x00, 0x00, 0x00, 
  0x10, 0x00, 0x00, 0x00, 0x02, 0x00, 0x00, 0x00, 0x4c, 0x00, 0x00, 0x00, 
  0x70, 0xff, 0xff, 0xff, 0x3e, 0x00, 0x00, 0x00, 0x73, 0x65, 0x71, 0x75, 
  0x65, 0x6e, 0x74, 0x69, 0x61, 0x6c, 0x5f, 0x33, 0x5f, 0x31, 0x2f, 0x64, 
  0x65, 0x6e, 0x73, 0x65, 0x5f, 0x39, 0x5f, 0x31, 0x2f, 0x52, 0x65, 0x6c, 
  0x75, 0x3b, 0x73, 0x65, 0x71, 0x75, 0x65, 0x6e, 0x74, 0x69, 0x61, 0x6c, 
  0x5f, 0x33, 0x5f, 0x31, 0x2f, 0x64, 0x65, 0x6e, 0x73, 0x65, 0x5f, 0x39, 
  0x5f, 0x31, 0x2f, 0x42, 0x69, 0x61, 0x73, 0x41, 0x64, 0x64, 0x00, 0x00, 
  0x01, 0x00, 0x00, 0x00, 0x10, 0x00, 0x00, 0x00, 0x00, 0x00, 0x16, 0x00, 
  0x1c, 0x00, 0x18, 0x00, 0x00, 0x00, 0x14, 0x00, 0x10, 0x00, 0x0c, 0x00, 
  0x00, 0x00, 0x00, 0x00, 0x08, 0x00, 0x07, 0x00, 0x16, 0x00, 0x00, 0x00, 
  0x00, 0x00, 0x00, 0x01, 0x14, 0x00, 0x00, 0x00, 0x20, 0x00, 0x00, 0x00, 
  0x20, 0x00, 0x00, 0x00, 0x01, 0x00, 0x00, 0x00, 0x40, 0x00, 0x00, 0x00, 
  0x02, 0x00, 0x00, 0x00, 0xff, 0xff, 0xff, 0xff, 0x01, 0x00, 0x00, 0x00, 
  0x04, 0x00, 0x04, 0x00, 0x04, 0x00, 0x00, 0x00, 0x21, 0x00, 0x00, 0x00, 
  0x73, 0x65, 0x72, 0x76, 0x69, 0x6e, 0x67, 0x5f, 0x64, 0x65, 0x66, 0x61, 
  0x75, 0x6c, 0x74, 0x5f, 0x6b, 0x65, 0x72, 0x61, 0x73, 0x5f, 0x74, 0x65, 
  0x6e, 0x73, 0x6f, 0x72, 0x5f, 0x31, 0x38, 0x3a, 0x30, 0x00, 0x00, 0x00, 
  0x02, 0x00, 0x00, 0x00, 0x01, 0x00, 0x00, 0x00, 0x01, 0x00, 0x00, 0x00, 
  0x01, 0x00, 0x00, 0x00, 0x10, 0x00, 0x00, 0x00, 0x0c, 0x00, 0x0c, 0x00, 
  0x0b, 0x00, 0x00, 0x00, 0x00, 0x00, 0x04, 0x00, 0x0c, 0x00, 0x00, 0x00, 
  0x09, 0x00, 0x00, 0x00, 0x00, 0x00, 0x00, 0x09, 
};

const unsigned int g_model_len = 3296;
